000000000
000000000
000000000
000000000
000000000
000000000
000000000
100000000
080000000
055555555
040000000
033333333
000000000
200000000
100000000
0AAAAAAAA
080000000
066666666
000000000
300000000
180000000
100000000
0C0000000
099999999
000000000
400000000
200000000
155555555
100000000
0CCCCCCCC
000000000
500000000
280000000
1AAAAAAAA
140000000
100000000

